memory_initialization_radix=16;
memory_initialization_vector=
13f5fa3defd617feeb,
11f4fb30f2e00bfcfd,
10f00031efe106fffb,
0cf1ef0505ee0602ef,
edf0f5d4fef2e3e9ea,
11131afa3e2c0b2427,
03060ef8011505ea09,
08091110060e140314,
00dbe6f7d8e507d7ef,
18110c0b1718fc09ff,
14fdf8fcf800f4fcfc,
15f3effcf1f6fdf6ed,
f6fe04f7f8f708000a,
fff3fcfcfdf7170706,
f2f8f700f7f70b0804,
19f616f9e009faebf8,
f6ed09f0e20304fc01,
06fc01feff01fc01f5,
baddf42f1c00301004,
c9f50d1e11fa0af703,
bfe10b1816f81e04fc,
f8020fe5fb20e51009,
eb0310de0122e60e08,
eb000add031de51707,
ebe6e7c4a1e0dab1e4,
061806ff001208fb11,
123000364b181d3714,
f804080c050804120d,
00ffeb040006fff1fc,
f80705ea0def160511,
b415d3dbee211d1732,
005b06e7d213fbcd05,
3961f315cdf90fc3d1,
351d1e19fbffc2c8f7,
2606001cf5fddddafe,
0501fa1304f2f5f807,
06351a17462ef71f0b,
edd6e3f6dce804fefb,
08eafdefd3f50dfdfb,
142df5f9e0e704e4ef,
1b3b09110919180e15,
d80efee2cbfae7e7ff,
07bf0af6050301ea02,
0cd105061b1708f600,
0adf040d2411000606,
f8f7ee0002fe060d00,
020312130219fd0608,
0a031bf1f80df5e3ed,
ffff04fff80004fe01,
00fc0000fa00060005,
00fe03ffff01ff0100,
0506ff0601ff0200fd,
fffffffdfbfd0200ff,
00fe02fcf9fffefb00,
ff0202faf4fc00ff04,
00f9fe00f2fc01fb01,
00fe03fafafc02ff03,
00000000ffff000101,
040204fdf1fb06fafd,
fff5f9fff5fcfe0003,
fe03fcff00ff030703,
fd0001fafa01fc0003,
fdf900f6ecfe00f804,
030104020101000000,
03040000ffffff0000,
0a040104fcfcfefbfa,
f9fcfefe0001ff0203,
0808040300fffcfdff,
fcfbfbfd0000040502,
020002020100030201,
fdf9f9f9f3fbfdfe02,
ff0001fe0101000502,
f9f600f6f702fbfc05,
02000100ff01000000,
0200ff01fcfffffcff,
0407030204ff040500,
00000101fffdfefbfc,
01fcfd00fc00fffe01,
00fefdfaf8fdfafffe,
04040300ff000000fe,
ff0008fcfa05fef903,
02000202ff0204fcff,
fc0009fdfe0500ff08,
ff0008fcfc02fcfc01,
010004000002030204,
fd0005feff00000101,
020000f7f5fc01faff,
fbfc00fcfb01fefd01,
0204f90409feff04f9,
fbfc00fdfe00fefcfd,
fc0300f6fd06feff06,
fdf901faf7fe00fc00,
fa000cf9f903fffd05,
01ff04faf603fffc02,
fe0403f8f702fcfafd,
ff0000fefb00fdfbff,
fef2fc00fb010104fd,
03fcfa00fdff000108,
fff7fb030001000902,
fefbfd02fe00060500,
00fe00fefb00030403,
fcf6fe000205050704,
fef9fc01fd00020303,
00edf5fcf0fafb0001,
0005000003fe00fcff,
ffffff0000ff01ff00,
fcf9fd0002070103fc,
000002020203000600,
f5f4f6fafa000f0e0b,
fbf6f8ff0209020601,
00fcff00ff02000000,
01000001fe02020101,
000100fc0001fcfe00,
010000fafafffefd01,
fefcfe03040000fffe,
fdfefe020600000604,
fefcfefdfdff01fdfe,
ffff0100feff000001,
020301020404030103,
00fd000200fa0005fd,
000405fefd0002fdfd,
030302050304030504,
03fe0003fefbff00ff,
fdf3f600f6fe00ff02,
fbfcfc000701fb0404,
fc01ff000908ff0607,
00ff0001fd0101feff,
000000030303000001,
0200fa0000fcfffe00,
0300fa0503fefbfdfe,
fffd07faf804030000,
fdf506fbf504070804,
0708000003fffefffb,
0101ff010000010000,
000000000000010302,
000202ff0000010001,
021ff70319f8f7f8f1,
fcfcfefefffeff0100,
f7fa02ff0604ff00fc,
fe0500fb00fffffe00,
fbe016fde90e0e0602,
0cfeff03f4fc010106,
0006fc0004fd00ffff,
fcf800fefc01000004,
000100000000000000,
020400010200ff0000,
ffff02ff0102ff0101,
fe00fe000302fe0001,
000000000000000000,
000000000001000000,
000000000101000000,
000001000001000000,
fcf8fffef7ff01fc00,
00000000000000ffff,
0103fe0101ff0000fe,
00fefc010000000000,
0008fd000f03fa0400,
fdff01fc0005ff0003,
fefdfe00fefe010100,
0003000002010000ff,
f2e9eff4e6eefffcfb,
f500fdfc0301030909,
08030002fefcfdfafd,
f8ff01f5fe00fe0308,
01030301fd00000005,
fdff0000ff00000000,
0004000100fe050706,
0505ff00faf6fff8ff,
ff0000ff0504fe0104,
fafe00fe0105030607,
fdfbfffefaf7000304,
010106fdfefe00fe02,
f7fcfa040000060c0e,
06030702fffcffff00,
03fcfefdfbfc050004,
fb0001f9ff02020609,
000300faf7fff60007,
00010201fefffefa03,
0e010005f6fefef901,
ff01fd0100fc00fffd,
07000404fbfc00fc02,
0efdfe0af3fb01f502,
02fcfa08fff60af8fc,
050e010a00fcfef800,
04fa0002fe0100fd02,
fffcfffcfdfefefefd,
0200ff00f8fffcf902,
02f1fafbee0000fd07,
08040006fbfcfcfcff,
04fe0204f600fffb04,
03fd0006f8ff00f905,
020000fffe00fefe00,
02ff000103fe000100,
fe02fe041201fc02fc,
f7f7f6f4eaf3fef6fa,
00fe00fdf6fb00fd01,
03ff00050605030401,
ff0502030706020602,
fffffefffcfe000000,
00fd00fdfd01020002,
f7f9f3fc190df9fffd,
000000fcfdfdfdfefb,
00000100ff03030507,
020605ff0204000000,
02020403f5fe05ff03,
00fefc00f5f5fef7f4,
0101ff000300000200,
fefcfdfcfbfb0001fd,
0102fe0403000104fd,
0101000000ffff0000,
020000000000ff00ff,
000001fcfe00fffd00,
000103020604030609,
070a09060c07040507,
fffe0000fe00000105,
0102fe010302020102,
fdff02fbfc05fc0008,
000100ff0100fefe00,
000102000200030400,
010200020202fffc00,
020101fbfc0201fe04,
ffff0200fd00fffd00,
010100000300000202,
fefefffefffffefd00,
01ff00000100ff0201,
010304f3fa01f2fe02,
fcfefd0402ff0a0afd,
fdfafc02fffd0601fe,
010300ff00fe010000,
0402ff000000020003,
000000000001030302,
00010000fd020500ff,
0202fffcff01fcf7ff,
020000010201030203,
00020404020002f8fa,
020201fefa01020503,
fcf8fd00ff01090a03,
0100f80104f9021400,
ff00fcfcfc00fefcff,
fcfcfc0100fffe0001,
0201000301fefd0001,
0001faff02fd000000,
02040500fe0000fdfe,
fffd0000f9fd040000,
ff0102ff0001faff00,
000304fefffffffefd,
00ff0001ffff010102,
ff0202fefd00030001,
0005fafc0c06fb0201,
010203030002010100,
fffc00ffff00010001,
000200fb00fe00fe00,
fbf3fdfee7f008f7fc,
020405030704ff0300,
000301000302010103,
fe00000101fe00ff00,
01ff01020001ff0001,
0806000702010000fe,
fdff00fdfffe020000,
fbff00ffff01020301,
0101ff0000fffffffd,
040100000100fe00ff,
00ff0000ff00ff00ff,
000002fd000000fdff,
1008fd0705fdfd0000,
000201010200010002,
fd0000000201020100,
000000ff0300000001,
f6fd03fc0000020101,
00ff00fefb0001fe00,
0000000202ff0100fe,
0000fe030100020302,
fefc00fdfcfc050106,
02010600feff0400ff,
ff0200fbfd00020302,
030004fff7fa06fefd,
00050403040700ff00,
000402000304fdff01,
0400ff01000002ffff,
fd0805f9f50002fa00,
020407fafb05fff7ff,
fdfcfd00fffeff00ff,
040509f7f206fceff7,
020006fff6f7fdf0f2,
fd0005fcfd03ff0005,
040309faf906faf6f9,
fd00fff9f8f8fffcfb,
fdfdfafcfafc030101,
fefe00010100ff00ff,
00ff00000100000000,
ff0002ffff00fffe00,
00000000ff00000000,
000000010000000000,
0000ffff0000010100,
020101030200020300,
000000ff000000ff00,
000000000000000100,
00000000000000ff00,
000100000200070300,
03040000fd00040700,
0000000203fffefe00,
ff0101fdfe000505ff,
0001ff000000010100,
ff0000000000ff0000,
fff9fb00faf7fdfffd,
02fafc06fdff070302,
01fe0002fe0204f7fe,
f9fbfefffffbfd0000,
00fdff00fe00fef9fc,
fcfef90000fd02fbf9,
f9f6f9f9f5f9faf7f9,
02f9fe02f8fd01faf8,
01ff01020101fbf9fa,
ff0300000100020200,
fcfafefefcfc04fafb,
00fdfd020100fe01fd,
fdfafe02fefe05fefe,
05fffe04fafb04f6f6,
00f9f805fef803fdf9,
030202010501060101,
04fcfc030901fb0102,
03fc0502ffff0005fd,
050c00fc0001fdf502,
0002fbfdfdfd01ff03,
080706000503fdfb00,
050507fffefefdf7f9,
000101020201000704,
f9fd050000000305fa,
feecf8080702fd0d03,
00fdffffffff000200,
01fafe00f2fa000202,
fef7f8fcf6fbfffaff,
061506f7fd01ffeafe,
ff0008fff7fe0500fb,
faf6fb000503000802,
fbfefffffefd040101,
fd060ff9eafc03fafa,
fffd000100f9000401,
fcf70c01f6fb0903ff,
01030400fffd0400fa,
fafd08fcf4ff07fefc,
fdf3020bf5f40e06ff,
01fc03fff5fb00fef0,
fcf0fe0600f6011304,
000002000101fdfd00,
fefbfffefffe0000fc,
00f9ff0500fa000902,
01f1fa0909f7ff09fd,
fdfa0d02f2fd0900fd,
00fe0400f6f9040500,
ffff0801f90701f9fa,
03010302fdff000000,
010502000404fd0202,
fe0005ff0003fe0100,
0003030005020003ff,
00fc0000ff0100fc01,
000100000002020201,
fc0101fe0101ff0501,
0100f8fef8f701fef9,
00fd0dfe000cff030a,
0002ff0001fb0001fe,
00ff02000002000000,
fffefefdfcfefffe00,
00ff000001000101fd,
02fd01fffd00040000,
05fffa01fef90900fb,
000301fd0202000200,
fd0000fe0000fffd00,
05f9fb08f9f20d02fb,
04fdfc05fefe08fcff,
0000fb0002fafd03ff,
01ffff00fffd0401fe,
0201ff0500fd020302,
0000ffff01ff000100,
fffc0101f9fe04feff,
ff0104fdfe06f9f900,
02fe0003f90108fcff,
00ff0000fe00ffff00,
00ff01fd000004fbff,
feff01fffc0100fe00,
0001fa0a05f1000bfe,
000201fb0407fdff07,
000005fdfc0000feff,
0300fe0002000001fd,
fdf90001fb0204fb0b,
06fa0004fe0602f602,
010106fbfa0104fd09,
01fb0201ff0103fd04,
01040301010205060a,
fffb01fcfb02010006,
fefef90001fff6f0f5,
03fc0200fe0005fc06,
fbfa0005ff08fbf600,
ffff0300fe00fdfd01,
fcfaf6fd00fef9f403,
00020504000305fb01,
040108f5f5fffcfb06,
fcfbf2110c06f5eef3,
03000409060905fa0b,
fdfb01fefe02fcfe00,
0001ff000000000000,
040a00010a00fdfcf9,
03ff0004fffdfeff00,
0306fd0504fffdfe00,
fffdff01fffe020000,
000300010200fefffb,
000000ffff00ffff00,
ffffff00ff0000ff00,
eff102fbf905090800,
0200ff00ffffffff00,
060800fbfc02fe0105,
000000000000ff0000,
1216f3090bf2f0f8fb,
00fc000a03fa03fcfc,
00fe03ff0103010402,
0703feffff0000ffff,
f5fdf8f5faf7fd00fa,
fefefbfafcfdffff00,
01ff00fbf9f9fcfcff,
fc00fd00fefb000504,
06000505fd0003faff,
fffd02fffdfdff0001,
fe0002f9fbfb010305,
f6f8f4f3fcf9f5fcfb,
ff0005000200fdfcf9,
00ff000200fc020000,
f9f6f8faf7fe050305,
f8f6fbfefaff00fd03,
00fd00fafb01fd0409,
030504ff00000000ff,
fe00fcfbfff9030200,
fe01000203fe030002,
fafafc010803010703,
ff09f80000fa00fc06,
02f2fbfcfc07fb040c,
fef4fef70205f90404,
03f6fcfff903fefd03,
05fcfc00fc0001ff01,
02030101fef800f9fb,
0009f800faf904f702,
fbff010102fd01ff01,
040103000003020204,
fbf906ff0304ff05fa,
fefe080303ff0000fd,
0aeef2f4e915fbff1a,
00f600fdff05fffd0b,
0005010401f900fafb,
020001fe0004fe0105,
fcf1fff6f00102fafb,
fffa04fcff0802fefb,
ff01000103fd0201fd,
02fe00fcfa06fefb06,
fe0001ff02010001fc,
fe0002fd0004000100,
f9f804f8010a0503fe,
fdfe08000809040202,
010002fefe04000001,
000103000205000004,
00fe01f9fa0d000100,
fefbfbfcfb0401fe00,
f8fe08fb06040302fc,
fbff01fe0004fe0201,
fefb00f902070702fb,
000100fd0101ff0003,
f7fd03fbfeff000205,
f8f9f6fcfefc010500,
020002fe01fffefd03,
f8f8faf9fbff00ff08,
07ff0104fb00fef8fe,
04000100fbfefcfcfe,
0307030100fbf8f6f3,
0100feff0005f9fc04,
ffff0300fe01fdfb00,
fbf7fbf9fbfefcfefe,
fffe00faf4fffdf6fe,
fcfcf0f5fdeef4f9f1,
050001fdf7fefcfa01,
050102fbf7f8f2f4f7,
fd02fd000100fd01fd,
fafbfc010304070903,
020503030707010307,
00fdff0500f9050000,
fd0204fefd02000001,
fffafd04fffa080300,
020407fe0207fe0004,
ff0102ff0202fd0002,
0102fb0203fe000001,
fdf400feecfafff0ff,
020002fffd0101ff02,
0401fe0501ff050100,
000003fffe000000ff,
0000ff00fffaff03ff,
04fffb0800f80702fd,
0302fffeff01ff02ff,
ffffff0000fcfefd01,
00fefc02fefc0500ff,
0204fe00fbfb0000fe,
05fe00feedfb04f7fc,
f900fef8fd00fb0100,
0c090702f6fe04fcfe,
f9fffa000806fb0602,
03060402ff00040102,
00fdfe01f5fc0301ff,
ff0601fb0103020204,
fdfbfb000cfe050501,
020205ff000401ff04,
00ff00fcf803060509,
020c0501010104fffd,
11fd08f9d7fc0af500,
000b000a0800faf9fe,
0001fffaf800fcfcfe,
fdfd0000fefffcfafc,
0201fb01f0f805fafc,
04050502fdfc00f9fc,
fdfefc0100fe010705,
00050405000103fbfc,
00fbfd01fbff040103,
02010002fafe050000,
00fff903f0ee00f6f5,
02040000f5f8fcf4fb,
04010203ff0004fd00,
01fefefefffefffdfe,
04ff0107f3f805f8f7,
ff03fb05f9fc04fe01,
070407fefbfffbff03,
000204000004fe0208,
03040000f4f301f4f7,
030406020000fcfbfc,
000000f7ecf9f2f703,
020201ff00ff01fb00,
04030100fa00fbfe00,
fafafb000300050401,
06060a0603fffbf9fd,
0a0a06fdf8f8f8f6fe,
000405080a050900ff,
fb01fdfef7fbf4ec01,
06080405fffcfbfafe,
ff00fffefe00fdfe00,
fcfe0000fffffefafe,
0808fffff6fe000405,
00000401fefe000001,
03000102fd00fd0202,
0002020000ff00fa04,
000000000000fefdfe,
010dfc050a00fee903,
fa0006f9040400fe03,
0502fb0500fc01fffe,
00fd01fbfc04fc0204,
00030200020002fefd,
fb0101fd000100fcfe,
01fd02fffefe010000,
00f00301ffff020cfb,
f3040af9ff0609fefb,
010002000001010101,
00fa00fbff000001fd,
0002030304f904fdff,
fbf906eb0211f6040b,
0503f80b01f405f8fd,
fcfffffe00fffc0001,
fcff02fe0002ff0003,
fbf1f700f3f703fe00,
fcfcfcfafbfefef500,
00020603ff000000fb,
fa0100fb00fc0003fe,
fcf800fdf7fc01fdff,
fdf900fbf6fefefbfd,
fd020cff0508fa0002,
f70002f6fcfd04fefe,
03fcff00fd05feff00,
fbfbfb00fdfc000002,
fdfd0200fd03fffb01,
00fa0104fcfc060401,
00020600f80003fdfe,
06f9f805faf807fcf6,
ff0102fffeff030201,
fb0702fd0603fa0207,
00fe0005fa00060304,
feff01020100000602,
010303070000010302,
04050200fc0001f5ff,
02000102000105fcfe,
fb0000fefe00020303,
fc0000ff0a04fb0606,
03fefb04fff90100fe,
0300ff00fd01fcfe03,
00f8f7fdf4f7fff9f6,
04fc01030400030404,
f9f800f9faff00f8fd,
f9f3f400f1f503fdfe,
fbf4f9faf2fa04fd00,
fd01fdfafdfffc0000,
02fc0102fdfffe00ff,
0507ff080702fbf501,
040a000202fefef9f9,
fd0a01fffe0101f7fa,
0407fe06060100fefc,
fcfcfc00030200fcff,
03fe00fefafeff0f03,
ff020100020000fe00,
0000ff00fdfd00fdfd,
0808ff070002fd0004,
f3f300fe0304090dfe,
fdfd0600fc0504fe01,
fbf9fe01ff00030002,
f9f6000000020a06fe,
03f3f8f5f4fc000704,
ff020001fd03fefe00,
fcfafe0304010207fc,
fdfc03fefd06f6fa01,
ff03fdfcfd00fef9fe,
fc030300020400fefd,
00fd0000000100fe00,
fbf8fcfcfafb00fdfd,
fc00000000040200fe,
fcfcfffc00000004fc,
0608030a02fcf6f1f8,
00fbff06ff0100fdfe,
fcfdfdffffff000000,
00030000fcfef8f3ff,
ff03fefa00020000ff,
fffeff00fd04020101,
0300ff01fffdfeff01,
00000000f8fffdfd01,
f9ffff000000ff0001,
0100fdfff900040400,
0000fffcfe00f80000,
fafefefefc0000fe00,
00fdfefe00fcfffffd,
010503f9fc00fe0100,
01ff020006ff0002fe,
010302ff02ff030d00,
00fdfef7fdfafafefb,
010600050401fc0303,
00fcfd0203fd010000,
000607030a09040804,
00030500fc020000ff,
fe0400fe0001fdff00,
fc0000060305030302,
f9fafe00fcfe00fcfa,
fd01fbff08fbfd0afe,
fe00feff01000102ff,
fefefef7f3fcfbf9fa,
fd03010000fe02ffff,
f8fcfe0001fff9fd00,
f5f401fdfc01f8fbfd,
fbfffd0102000100ff,
fb010003fdfe0306fb,
01000000fe00020204,
00f9fffbfffffb0103,
f9f5f8ecf1f7edf3f8,
00fafefbfefefbfcfc,
f4f900fafa00f4fbff,
fef9fef6f5fbf9fd02,
020400f4f7fdf8fc01,
090602000200000300,
fb050302000400fe02,
fafe00f8fd03fd0107,
01fefcfefdf9000000,
020402010203fefffe,
0300fdfaf8f701ff04,
050001040200000001,
f700fdfb00fef901fd,
02040a010306000004,
fcfe03fdfdff01fd02,
03ff0001ffffff0005,
01fe0103000002ff00,
ff0002000000fffd02,
01fb00fcfafb03ff03,
00ff0101010301ff02,
00fd00010000030402,
fd0307ff0208000001,
f6eff4f2ebf203f5fd,
f9f7fefa0101030508,
f8f9f9f9f8f8faf5f9,
f6f800f5f8fb02fbfa,
0303fe020000fffd00,
fa0003fe00fffefdfb,
fef7fa0200fb090503,
fdfd02fbfbfff9fc02,
00ff05ff0001020204,
f9fcfdf9fefaf8fefd,
fffc04fefb03fef504,
fbfbfe0200020001fe,
020201020302fffc02,
00f9fffffdfdfcf9fa,
01f8fffdf9fa01fcff,
0503fd050200f8f8f9,
faf3fdf7f1fdf8f3ff,
0000fbfa00fff9fd00,
05fcfe040308fe00ff,
fcf400f9fdf70000fd,
040106030303fcfe00,
050401ff0605faf9fe,
01010afcfdfd0706fb,
0500ff000405fd0107,
04000500ff01fe00fd,
f2f7f2f5f8f4fc01ff,
00010201fe04fd0000,
f7fafbf900ff020405,
ff030302fe02050303,
000002010208030003,
010000ff0002fe01fb,
05ff0602000101ff00,
fdfefe000303fe0201,
fb0300f7fbfff9feff,
0303040502060103fd,
0301020002ff05fcff,
eaeceef3f1f1020900,
edf5f6f5f9fa000000,
ff0200fb03fefe0401,
0602fc00060afaff06,
01000202fd03000002,
fbfc04f4fb00fb0201,
f8f4f4f5f9f3f7fbfa,
00000000fe0001fdfe,
f0f3f1f5f1f701f9fa,
01020101ff01fbfafc,
04fdfc020002f700fd,
03fe00fefffefdfcfc,
f4f6f7fbfdf4000400,
0000fdff0400fc01fd,
fe0b050004fafff5f8,
0a020504fc03f900fa,
fb0207fd01fc0401f8,
faf2fbf9f905000e0b,
ff0204ff0000010000,
f4eff700fd040c1313,
f6f7050105010206fb,
00ff0602000300fbfd,
0000010100ff010603,
060aff030100fefafd,
02fcfb00fe03010407,
09fffffbf8fcfd0106,
0602f9fdfaf9fbfa03,
ff01000303fe0000fc,
fdf8f300fb01000308,
0202010002020001ff,
fdfcff0300000100ff,
0101fdfefdf7fefdf8,
0100ff030100f4f9f8,
0202fcfffb00fcfc04,
040100fdfdfefd0001,
00f8f1f9f1fa01010d,
fe0003fe0104fe02fd,
0000fe00f8ff030003,
04fa04030000fb0a02,
01030205000204fff9,
03060002fafffaf501,
fffdf5fcfbfbfffb00,
0711fd0000f4fae800,
fdff000005ff04fdf9,
fdf5fefe0100000500,
fb00fe0103ff0200fe,
0600f90600f60505ff,
000000020000030301,
01fd0003fd00050003,
fc0303fe0000fffdfe,
f506fdf11208f900fe,
f80600fb02fafd00fb,
ff0300fe02feffff02,
0000fefffffd000001,
fa0efef80d0500f7f3,
08fbff05f6fb040001,
0000fd0101fc00fffb,
fb0b02fb0d07f7f7fc,
f10306ee0612f3fbfc,
00fe00fffafd00fd00,
03fffb0200fdff0000,
02fbf9fff8fa01fefe,
00030303ff01000001,
00fe0002fd00010003,
02010000feff020100,
02fdfe00ff00ff0002,
0000fa0301ff0000fe,
fd0208000000fffdfe,
09fefa06fbf8090000,
02000003fefe00ffff,
01feff0000ffffff02,
04fbf603fdf803fffd,
fefdfbfe00fe050500,
fdff02fdff03feff00,
fd0303fe0004fbfbff,
02fc00fe0004020002,
04ffff0100fb00fdfe,
f8ffff0310fffe03fc,
040b05020c00fbfefe,
020301000000010000,
00fefe050700fe04fd,
05000205000201fffe,
fdf901f8f2fe010001,
fefc00fe0005ff00fb,
faf3fe0b040201fefc,
00fc02faf501fdfa01,
fdff00ffff05fcff00,
fe00fe0000010204ff,
fe02fb030200fe02f9,
fef502f7f2ff00fd01,
00fdfb01fdfd01fffd,
030808020905fbfcfe,
fe05fc0202fcfa00f5,
00ff03fe0104000103,
ff0100030102fe02fe,
faf600fcf2fe00f8fc,
fe01fdf8ff01fdff05,
00030003000302ff04,
0000fc000000010400,
fbfdfcfe0000000400,
ff00fefc01fffd0000,
fdfd00fffafd0000fd,
040903010508020500,
fffbfcf9fbfdfdfefb,
05000003fafefffe00,
0200fc030502040000,
ff05000408fafafbfc,
0000fb0004ff000603,
fcfc03fefa01fefcfc,
faedfafff6f70006ff,
010502fffcfefefe00,
0102fefe0303fdfbfa,
02fcfd0000fb00fffe,
fff50303ff03000a04,
020000fd0f0105fd01,
fbfd00fefbfe010b00,
fe0104fd04060004fd,
fcf3fcfcfcfdff00fe,
ff000000020000fffc,
00020000ff0000fffa,
05fbf8010cfbfc03fb,
fdfbfdfaf9ff040407,
00040400f7fa00ff01,
0300020205fefffffc,
fe01f60000fe00fbf5,
00fd00fefdff00ff01,
03090100fe02000101,
fdf9fffcf5fcfefbfe,
f9f8faff00fe00fe03,
fffdfd000000030001,
fffdfcffff00fbfefc,
00010704f7040303ff,
00fdfc00fdfd00ff02,
fefdff02fefe00fe01,
ff0303000403fdff00,
00fafe01fdff00fd00,
05fbf9010e00fa0aff,
02020004020300fafc,
000700fdfb00fbfaf9,
01f9fe01fe0100fe01,
000100ff060503fdff,
fcfe01020403ff00fd,
fef90201040b060b09,
ff00f900fffe040401,
0008050701fd00fcf8,
f70006fd0307fb0405,
ff010004fefd050308,
f3f6fc000303010604,
fb0002020602000500,
03000000fdfdfdfefe,
f4f9fdfc070a010700,
0400fe02fdfb01fefc,
0101000100fcfe0001,
fbfdfbf70004000708,
fdfbfbfcfcff000808,
000303030601fefdfd,
0401f900fbf500fcf9,
0300fe0100f90000fd,
fbf5f7f9f3fdfefd00,
00faf9fef7fafaf5ff,
020008fdfefe030509,
fef8fcfcf800fcff06,
00000002fd0000feff,
f9fafdfd0109000504,
040b070004fffffefe,
fe0302ff0202010000,
fdfc00fffffe040503,
070300050504070503,
00f8f5fffbfd000200,
020101fefb01020002,
fd0305ff0505ff0400,
fcfc0102060202ff00,
0004010404ff030300,
fe0008fe160aff0306,
0202fd0b120907150f,
02fcf902fc010f0005,
030709fffe03fb0608,
0d14ff0709fef6e5ed,
fcfaf5fff9f8fde8f1,
fdf6f3f9f1fffdf500,
0002f80908f8030a03,
0105020001fcfcff07,
fe0402030400f9fafe,
020300f9f6fb01ee02,
fbf4f300edf2020302,
02060af7f805fdecff,
08040004fd0000fbfc,
0100fef2fafdeff3fa,
03f3f4fbe9f0fafafa,
fbf30dfaf3fe00f6fa,
feffff03fb000b0c02,
06070e02080708fd00,
00f10003f90105fc04,
05f40003f9f600fbfc,
00fffc00faf700fffc,
0303fffdfa01f7ef02,
0c02fffeedf3f8edf4,
04010203fbf800f1fe,
000b03001103000d09,
02ecfd00faf9020704,
f90c01f90c09060d04,
fdfefefbf1f804f100,
ffff0507100009110b,
00070300f9fe020305,
0204fb00f5fc01ff02,
fffaf8000006020200,
00fafa00fc00fe0204,
020400fbf90302fcfd,
ff0203fb0600000002,
f6f900fc0301060503,
fbfdfe030301060101,
f9fbfdfa0002ff0402,
000107000606fd00fe,
0303fd0806fe05fef9,
fefdfdfafe04000707,
02010500000202fdfd,
00010303050000fefb,
fffefff9fefefd0000,
00fefa01fefa000004,
010104fefe03fbfe00,
fefdfafefffdfefcfe,
00f8fb02ff0001fd00,
010205000006fcff04,
fbf904f4fa07fafb01,
0101fe08ff0007fbfc,
fbf6f5fdf4f7fafafb,
00fc0004ff0200fc00,
fffefefffafd010704,
ff0302000d09010708,
0400ff070bfc0a05fe,
f90200fb01fc01fdfc,
ff050afd040800fd01,
fe0404fbfe00f600fc,
fafbf7fdfcfefbfffd,
fdfefdfcfefd000200,
020709030909ff02ff,
faff02ff01fe04fbfd,
fcfbfff4f3f9f3f2f9,
010201fc0005fa0204,
000103ffff0000fcfd,
07020002000001ffff,
030002fdf8fffffa02,
ff0100070802030200,
fbf7fa0002fdfa00f9,
fe0100fd00fffd0003,
0000ff00fc01fe0002,
fdfffe0509ff0004ff,
0000010001010000ff,
00fffd00000000fe00,
000703f6f501f8f201,
00010400fdfefff7fa,
fe0300fe0101fffefc,
0000fc0304000001fe,
ff0600fe0401000104,
04040304ff01010200,
000404ff000200fe00,
00fe01fffcffffff00,
00ff01ff000200fd00,
fefffffefbfffdfdfe,
fcf8f7060dfe021000,
07000400fb0002fd01,
0703ff02ff01ff0103,
000000fefeffff0001,
00ff01fcfd00feff02,
fffc03fdff03ff0001,
0100fefffd01ff0002,
01ff02f7f9fffbfc01,
02fefcfef9fafefbfe,
00fd0100ff01ff0000,
03fdfc02fdfd0600fe,
06fbff01fefc04fd00,
ff0c0c020805000202,
030402060c00000102,
00fcff010304010003,
fe0a04030f01fffe01,
00fffdfffffbfff8fb,
0207020200fffbfaff,
04fff800fffcfdfcfe,
030d040003fffefc00,
f8f0fa00fb00070007,
05050100fefefefeff,
0407fb0000ff00fefb,
fa0905000603fdf6fb,
fffb00ff0001000300,
fef900fdfafd01ff03,
00fd01040006010006,
020c06f9fe00f8f9fa,
fe0204fe0502fdfefe,
fffb00000102010404,
fcf9fe0101000403ff,
01fffd0002000202fe,
0c0d0009fdf701faf8,
01000003070601090b,
0100fa0401fefefffe,
fcedf6fef8feffff08,
fd00fdfe0605020801,
f4f4f9f8f7f703fcf8,
fcfe03fe0002fe01ff,
00000301000500ff00,
ff01fff8f8fa0301ff,
fefbfb00f9fefefc07,
000002010200fffefd,
010103000204000001,
000301ff0301ff0003,
0002000001ff0301ff,
fefe00000100020403,
04fffe000501010100,
01010301fe0000fefe,
0203fc0200fe01fcff,
000804020504000204,
000100000000020102,
0003ffff0703000601,
010101000302fd0001,
0000fe0000fd000001,
fefcfbfefefdff00ff,
0000ff0103010000ff,
f800fff9ffff000000,
0000ff010400ff0200,
0102fefe0000020000,
030706030303050202,
00fc02ff0001fd0002,
00fe00fe0000fe0000,
fc0000000001fdfe00,
fdfcfe00fbfbfe00fe,
00fcfb0002fe0000fe,
ff0100000101000001,
fefefdff0101ff0301,
000301000603fe0000,
040304050702000702,
020403ff0606000602,
fd0201ff000004ff01,
010302020303000203,
000304010205010401,
06fffc02f8fafff700,
f90200fc0200fb06fe,
fc0000fafefffe0200,
02fc000703000800fd,
05f7fffdf60101ff06,
fe0304fefefdfefbfe,
070105020002ffff04,
f9f00bf7ef0bfbf40f,
faff03f70100000701,
02ff0001fe0101fe05,
fefe06ff0205ff01ff,
00000000ffff0100fd,
0dfa0409f30003f104,
09fffd08fbf908fbfd,
fefefcfb0203ff0403,
fcfa00fdfb00fffbfa,
fd02fefffffbfc0301,
fffffbfcff01fe0105,
ff00fdfefffffe0002,
f50000f901fcfc0b00,
fb02fdfd00fffe0501,
fcfafffbfc00feff02,
07010101fbfe00fa00,
05ffff0101ff00ffff,
00fd01fcfbff020400,
fa0104fa0301fe0805,
f90000fa0103000301,
0406fb0006fd000600,
fffdfffe0000010000,
01010000fcfeff0000,
09fcf505fc000801fb,
fcfd04fcff01fe0001,
02fffd0001fe00fdfd,
020304f9fc04fbf902,
000103fdfa01000002,
fe0000fdff02fdfd00,
0101020002ff030000,
eeedfa1900fa070bfb,
fe0200faff01f3fbff,
ff0000fcfe00fbfc00,
010000fdfe00feff00,
f1eff22710f50a08f3,
fffffffdfeff00ffff,
00000001fd0103fd02,
ff000301fcfef500ff,
f6f0f80808f6fa13f8,
0000ff020000ff0103,
ff0102ff0102fc0100,
03feff040300000000,
fcfc0200ff01010200,
000000ff0001fd0001,
0000000300000302ff,
030502fa000100ff01,
00010001fd00000000,
fe00fa0600fe04f7fd,
010305f9fc04f8fc05,
000102fe000100fe01,
020000fffd0000fd02,
0102fd000000000202,
0101fefffc00fffcff,
000201f70001ff0100,
020004fd0000ff0103,
fd00010100fe010100,
02010002ffff05fe00,
ff0000000101010000,
00fd00fffbff02ff02,
faf8fdfbf9fdf9f8fb,
fefdfdfdfefefe0100,
00050201030200fd01,
01fdfe01f901ff0800,
00fe00ff0000000003,
00fffe0000fd0100ff,
fdfaf9fffafbfbfbfc,
00fffdfe0100000202,
fcfffcff00fffe0200,
fb000100fdff010000,
020400010002fefeff,
000003000002010501,
00ff00010000040201,
020301020303020507,
ffff01fdfd01fffeff,
0000020200000101ff,
fdfcff00fbfc00fefb,
fafbfdfefefefefcff,
000300020001000000,
fcfcfffafbfefdfd00,
fffefe0001fc02ff04,
010300000000000000,
000100ff0001ff0001,
01fffe010102020001,
fefefefefcfe0000fe,
faff00fffe0001fd00,
03020101000000ff01,
fffffdfffffd00ff00,
0000fdfffdfd00fefd,
040101010502000203,
fc0004fc020302ffff,
01ff01030607fbf9fb,
020406fbfb01fff8fc,
0204ff0002fe000400,
fffafa05fbf9090400,
00fb0201fafd020000,
f9f8fc01f7fd090502,
f7fafb050e05ff0106,
050302fefffefafd00,
fefe0100fffd02fefe,
fffc01030200fe0101,
fef6fa02fffe0101fd,
fcff0000fcf9050601,
fdf9fc01fbf9070802,
0000fcfa0000fdf9fd,
f6f8f9010302fefdff,
040104020303fdfef9,
00f7f6020403000507,
00fe02fc00fe01fe00,
02fd00060305fefdfe,
01fffa020402040607,
010604ff0204fffeff,
00fbfe02f8fa0800fa,
03010002030400fd01,
ff0202fafdfd060201,
ff00fbff0204000405,
040708fefe03fcf900,
040002080301010803,
fafbfbf8fbf9fd00fd,
00ff03ff0201fcf901,
fb0003fef8fd000003,
f8f5fdfefafcff0001,
fefa0200fa00fdf5ff,
0000000500fd0505ff,
0507fdff04fe020200,
f8f904fef8fe00fc00,
fd0207fcfb0000fd01,
0103ff010400ff0100,
faff0400fb00080002,
0001000301ff060402,
01fffffc0100fbff00,
fd0002fd0203fefd00,
fd0007fefd0001fdfa,
00f8fd0bfdfa0a02ff,
ff0400fc0002fd00ff,
fe0306fdfe05fff8fe,
ff00fcfdfcfa00fcfc,
fcf80700f60008fdfd,
fe0606000006ff0002,
f7fb05fbf3fdfefaf3,
040405030302010500,
00f9fffdfc0000fd02,
02fdff000200000803,
000106fbff01fffe03,
00fe09fefa0401fbfc,
f70202fafe00f900fe,
fc0003f9fcfe00fdfe,
02fdfefe010400ff04,
010003feff00fdfffc,
fdfefcfdfdf90406fe,
00f90003fcff03fffc,
0200f90400fb0507fe,
fdfb04f8f60000f9fc,
fc0001fdfefffc0102,
fefdfef9f801fc0002,
0304fd00fefdfc00fb,
fffffefdfefefafc00,
01fdfcfcfdfdfefbfe,
f2f903f2fe0afb050a,
02fd000000010402ff,
010002fd0005fd0303,
02ff01fe0000fe0301,
00fe010100feff00ff,
0800fc01fdfb01fcfc,
0603010400000403ff,
f7f700f8fe02010402,
f6fd03f9fc06f80009,
fff9fbfaf8fafaf9fc,
ff00fffdfeff0000fe,
0205fd0506fb0401f9,
00020102ff000100fe,
0102fe0300fefeff05,
fcff020101020200fe,
ff0000000300010001,
00ff0102ff00010000,
fdfefefdfcfefffefd,
fffef706f9f9fdf3fe,
00000000fbfffbfcfd,
000004000104030306,
0001fefe0001fdfe00,
00020002feff030100,
fdfffcfdfdfdfefffc,
00fdfbf8fa00fc0100,
fafd00f7fc02f90205,
0100fd0201ff020401,
00fafcfdffff0004ff,
f3f0f6fdf7f80402fd,
fffd00030400060600,
0003000605fc00ff04,
fcf5f4fafb03ff0005,
fe01ff050c00ff03f5,
fffd01fe0502ff00fc,
f80bff0004f800eef9,
fef6fafafa06f9fd01,
02000301040600fd00,
0408fcfdf3fbfdf70a,
00f90300fb04fdfcfe,
f6f6f600f1f9fffefe,
f5f7fd060bffff07f5,
050f080004fe01f6fa,
000001fefcf7fdfaff,
f300f7f3feeff7f6f7,
f5ecfbf8f8ff000506,
03f40201fe020406fb,
02fd020b04f90501fd,
00f802fffa04f6f900,
02fd0005fdfb03fdf7,
fef9fef5fdfffaff07,
040e02080c0003fcfd,
fbf1ed030408131710,
070403010a07030dfe,
00fbfd000003000b00,
f4e7f6f9f101050003,
f3f508010001060902,
fff5ff07fb00080a02,
01fefc0103030300fc,
fdfcfbf7fefffb00fe,
0400ffff0505fb0604,
02fe0800fb05fcfafd,
0306040101000002fe,
fafaf7fbfffcfa0001,
0300fcfe0100010000,
0700fd00fcfefcfbfe,
00fefefaf5fff6f4fb,
01fd07fdfa03f9f600,
01faf9faf9f7fbf9ff,
ff0100fdfdfefdfbfa,
fbfcfafc05fffe0100,
0100fafffe00060909,
fff7f8f8f4f4fff9fb,
0100f900fffe020400,
0a0905000000fdfafc,
fbfcfbfbfb00fafe04,
00fbfffcfbfd00f9fe,
03fd06fe0003fcf8fa,
00fafdf8f2f4f2f5f8,
000202000004fe0000,
000602000200fdff04,
fffafefbfafdfcf5fa,
060301fffefefffcfb,
0200fdfcf8fbfcfafb,
060200fdfe01000000,
030100fefc00fefe01,
0a00ff03fefdfcf9fe,
fcfcfdf9f9fb0106fe,
020201040203030004,
00fefcfffc02fefd02,
f8fefc010000000400,
00050003fbf80200ff,
fffffe00fafffcf9fe,
02010001fcff0000ff,
02fefe02fbfcfeff00,
fffdfffdfd01fd0204,
0401010000fefb0301,
030403fcf900fbfdfd,
00fdfa0000fafd0002,
fe0001fefe07010108,
fe060205fef800f6fe,
ff04fc0004fc050002,
0402000200fd020200,
0000ff00fafafef9fc,
00000002fefb0100fd,
fbfd02fbfe00fe0504,
060202010000fefcfe,
00fefdfff9ffff00ff,
fbf7f9fefdfffdfcfd,
fffdfd00fbfc02ff02,
05090504030301fb04,
00fc01000204000703,
fff8f8fcf3f8fffbfc,
00010400ff000005ff,
fdf9fdfefbfdfe0001,
fe03020503000400ff,
0201000001f702fdf9,
0003ff010900060506,
04050203fdfb01f7f8,
00020002fef700f9f8,
fdfe00f7f600f8fc00,
fffcfc01fbfc01fdff,
0403fffcf5fcfcfefe,
020003fefefcfbfcfe,
fd0200fe0300fffe00,
010103fd0000fcf9fe,
ff01030009010000fe,
fefffd0000fe0100ff,
00060200f70000fdff,
0204ff0000fe020201,
020600070100ff00ff,
fe1300fa0d01f3f6f9,
0305fd00fefa00fefe,
fffeffff0300000002,
000d00000a00fbfcfc,
fdfe000000ff00ff00,
00f8f902fa01010002,
f8f700fcf8ff010101,
00fffbfdffffff0100,
000500fe0000fffd00,
00fb00000201ff0000,
fefe01fefa00ffff01,
02fc01fe03fd010000,
000101ff0002010001,
00ff01030000000001,
ffff0100000100fffe,
02fe0000fdffff0000,
011104f91506fafbfb,
04000000fdffffff00,
00fffe00fb0101ff01,
fe00feff00fffdfe00,
00fb0000fcfd01fdfe,
fe0200fdff0000ff00,
fffd00fbfdfefefeff,
0302000003ffff0203,
00000300feff000001,
0400f905fdfc010001,
01010600fd00fd0300,
0701fd050000fe0201,
fe05ffff00fbfe0200,
ff0301040501050305,
0002ff0404fe00fefd,
fdf9fdfdfdfc00ff01,
00fef900020000fdfb,
06050afe020309050a,
fdfe0100fffd00fafd,
03000102fefd060000,
fbf7fefefafdfbf6fb,
02fffb00fffa0300ff,
03ff010300fe00fffc,
03000501fb0400fc00,
00060bfc0001000303,
00f7f600fbf809fcfe,
03fd0200fbfcfdfbfe,
04000100fdfc080003,
020107fefcfa05fefb,
020605feff01fdfd00,
02f9f403f2f201f7f0,
010400010100020501,
00fe01fffdfc01fc00,
0705000102fb020701,
fdfbfafbfcf9f9f8f9,
000301fef904fef1fc,
0400f9fe00fbfd03fc,
0000fc00faf600f6f8,
08fe0003010201fdfd,
09f8fd07fb0206fe02,
0402fc030a03fc0501,
07edf1f6e6eafae6eb,
fffdfefefe02fc0000,
02fefffffe00fdfdfb,
040302000301020402,
fffa00fffbfefaf5fa,
fd0101fd0004f8ff00,
0306030101020300fd,
01ff01ffff01fe0003,
ffff04fe0203ff0001,
0804ff0406000702fe,
00feff04ff0004fffe,
fd0101fffefefefeff,
00fe0000fcff00fc01,
ff0102ff02fe0000ff,
fffbfffeffff010000,
fcfbfe00fe02fbfd00,
f9eaf2f7eaf1f9e8ef,
000201020402000001,
f9f900f7fa02f1f6fe,
f9fbfffafd06f9f8ff,
010100fe0000000002,
0000000201ff070200,
000000000001000000,
0700ff03ff0001fd00,
fefdfdff0000fdfdfd,
fffdfdfffffd0001fe,
010300000000000402,
fdfefc0000fe000104,
0708050204030400fe,
ff03010001000000fe,
fd0100fefe00ff0000,
02f9fbfcfafef8fafd,
040005060203030000,
000301fefe00fffdfd,
ffff01000102000004,
00ff0000fdffff0000,
fefdff000000fdfbfd,
010703fd0000fe00fe,
010000ff00fe000000,
040604ff0203010304,
0100fe0000ffff00ff,
000300ff0000000000,
030100030200000302,
fe0000000201ff0200,
fe0103fe0001ff0100,
020200ff01fe00fffd,
020403010202ff0304,
000002030203030203,
000100fe0102fe0000,
0300ff000000010000,
fdfefffdfbfefefcfd,
030300000200000100,
020603010200020000,
02ff010000fe00fe00,
00000000ff00ff00ff,
fe0305fc0001fefeff,
02020202010001fffd,
00ff0000fd0000feff,
000000feff00ff00ff,
02010000000000ffff,
fe0004000001010003,
000203000100ff0002,
010200fe0000fcff00,
fdfefefeff0000feff,
00000200000000ff00,
00030300000301ffff,
00fffafbfbf9fdfeff,
fdfafffffc03fefe01,
01fbfbff02ff000400,
04010201fe00fcfafb,
01fe04000600ff0205,
fd0003fcfa010000ff,
fdf7fcfcfd0101fcfd,
00feff00ff00000205,
ffff0000ff00040603,
f7f8f6f9faf9fcfcf9,
04ff000104ff0102ff,
000202ff000200ff00,
000201fff90001fdfe,
010606020003fffefd,
08070000ffff0200fc,
f6f6fcfafbfff8fafc,
fc00fefbfefcfcfbfc,
f6f905fdfbfc00fcf9,
f7f000f8f901fbfa06,
fefd0101fdfdfff9fc,
0000fd0100fffe00fe,
03050800feff000100,
fdfcfb0100fb010400,
0600fa0103fffd0100,
00fcfdfcff05fd0004,
f9f8f7f7f9faf8fafd,
fff7fdfcf9fdfcfb00,
050403020100000000,
00fefc01ff0102fc01,
03fef9fe00fbfcfe00,
05fefffa0002fcfc03,
ff00000400ff01fefb,
fe0001fd00fffefcfc,
fe01000305fefffffd,
fefdfc0101ff020000,
fe04fe070d010303fd,
00070001fcfdfcff00,
fd01fc020afd0204fd,
fcfbfbf9fc00fe0000,
00fe00fe0002ff0003,
020000fff300fefe02,
00fefe00000103feff,
f902fcff0a020005fc,
fffdfd0403fd0705fb,
00f8fb02f9fa03fcfa,
fcfcfbfdf9fbfe00fe,
fffafa00fffb0000ff,
fdfcfffbf900fdfb00,
00f8fdfef8fbfff7fa,
01ff0002fe00000000,
fdfdfffffcfffffb00,
00fffe00fbfdfefa00,
00fdfe02fe03fffd02,
0100fcff0405000204,
fdfbfafef9f800fefb,
000400000100010200,
03030200ff0000fcfe,
01f6fc00f8fffef7ff,
00020403fc00000100,
fdfefcff00fdfdfef9,
fe00fe0101fffdfafb,
0002ff04fefffdfb00,
0100fd00fa0000ff03,
02f8fb020000fd0202,
00fffefd0303010301,
0406fcff010203fe00,
f9fd0000fdfd000002,
00050100fdfd01fffc,
fa0006faf8fcfaf8fc,
000705000102fefe00,
fffafb0404fa0102ff,
fefd0000020100fcfd,
fdfd03fcfefffdfbff,
fafe06f8f5fdfef6fe,
f9fb05fef5f901fe00,
00030600fc0000fb00,
00060bfffcfe00fdf7,
0201f8fe06fffe0102,
f8000cfff8ff04ff00,
040404010105fd0004,
fbfb0001fbf90300fe,
010102030400000002,
0100fffeff00fefcfa,
000104000500fb02ff,
00050800010301ff00,
000a08f90203faf9fe,
0200fe0100fffe0300,
000203fd0200fcf8ff,
030a0301060501fe02,
04fefffffcfd00ff00,
fafd05fffafafb00fb,
f7fc01fdf7fd02fcfd,
fff2fe0005fe080b01,
ff0000fdff04fffeff,
000807fdff03fefd01,
f7f801fe0504fd01f3,
ff02000205fe0202fa,
03f802fa0005fd0a06,
010104fe0206040403,
060402010300020001,
f6f5fbf2eef9fafc01,
fbfafafcf8fdfdfb03,
fcfffffc0004fc0001,
00ff0200fe06ff0305,
00fffc01fbfffefb05,
fdfbfdfbfa0000fb05,
00f8f702fbfe050004,
00fefb000002ffff02,
07fef505fcfb03fd02,
fe0004000304fe01fb,
0afcfc08fb0407fa01,
f5f7fbf5fcfcfd02fc,
02fe01f9fa0302fc03,
fefdf8fffcf605fdf8,
01fcfcfef5fdfdfc02,
0302f8fcf6fb01fb03,
02ffff000200000500,
09faf801f1fcfef703,
feff00ff06fd0405ff,
01000201ffff020600,
03020cff0402020b04,
faf9fd010400080902,
0a07fafbfbfdfbff01,
01fefa00fbf700fdff,
ff0efc0907f90301fd,
fc0200fd02fbfe01fb,
fffefffef603f9fb06,
00fc0100f8fb08fefc,
020200ff0602fa0001,
0201040201f90002fb,
04060300000000fcff,
02000300fbfd04fdfe,
fbf4f6faf3f9fcf4f7,
fdfcfff9fafdf7f5f9,
f70200f9fdfffd0100,
030301030202000001,
fffdfb000100000402,
010001010002feff02,
0000ff0300ff0500fc,
fcfc00faf9fe00fafe,
01f7fc01f5f704f9f7,
ff040300fffcfc02fd,
fd0c06fc0504f70200,
02ffff00fafb030000,
fb0100fdfeff030000,
000307000100020201,
01fdff000000000002,
0300000402010200ff,
0000fffffc01000003,
00fdfc00fbfe00f8fa,
0200fefefaf904fcfb,
05080302000000fe00,
01000101fd00fc0000,
04000006fdfe05fefd,
02fffc04ffff0001fb,
01010000fefafffcfa,
fffffdf9fcfc00ffff,
00010200fe00000104,
000100030002ffffff,
fffb0200ff02030001,
0002fcff00ff000400,
fbfc05f7fb04fa0005,
0afff20cfaf702f502,
0bfef706fef800fbfa,
f90704fd0303fe0901,
0102f80303f80301fc,
07fbf508f8f704fcfd,
ed0201f6fe06f6030b,
04ffff0403fd05fdf9,
fbfd07f9f805fffa05,
0609fe0401fa0401fa,
06000100fffd0000ff,
0100f70203fa0503f7,
06fc010601fb01fb00,
0403f006fff304fffc,
fe0104020405010905,
0a00f90dfcf102fafd,
fd0104fbfefff701ff,
0104fefdf8fd000100,
f80111fc0005fd0006,
0500fe03fafd05fffd,
0308f9fe06ffff0601,
07fe0506fd0508fa08,
faf8f5030300030408,
f4fdfefefefe000000,
fefb0200fc02050104,
fc030af8f901f1fe02,
0502f80003fd03ff00,
0202010000fd00fe01,
07fef00703ec09fff5,
f60007fcfe00fe0106,
00fd0101f9ff010002,
fdfbfdfcf9fbfefcfe,
05fefa00fefa00fefd,
00fcfcfcfafafbfdfc,
fdf70001fafe020101,
040304000905000001,
02ff0100fd01000101,
fcfbfdfffefd010201,
fffa0200fafefffafe,
000300000200ff0100,
020203040306030304,
000300000401fd0200,
010400ffff00fe01fe,
01fdfeff00fffffeff,
fdff0200fd0200fefd,
fe0806fb0301fc0501,
00fe00fefc00fffeff,
fcfdfcfffbfc01fefe,
fdfc00fdfafc00fffc,
fffd01fcfd00fefc02,
02fefb0100ff0400fd,
00fd00fffbfd00fd01,
0001fd030000fe00ff,
ff00ff00fe0000fdfe,
fdf9f9fdfafefdfbfc,
fbfcfcfbfdfcfaffff,
00ff00fe00fffffefe,
00fefc02fdfe0000ff,
03ffff020000000100,
ff0001fef900010000,
fbfefafbfefbfe0000,
0000ff01fe01fe00fd,
ff0100000604fb0206,
0003ffff0500ff0200,
000309ff0005000000,
fefdfbfffd00fffbff,
0003ff000400f900fe,
00fffefbfe0000faf9,
fdfffbfe0601fb0508,
fbfe01fa0109f8fc06,
00fdfffdf8fa00f8fb,
000004ff0001fefffe,
ff0003fffd0000fefe,
0101ff010301fe0204,
040303030005000000,
ff0000fe0100ff00fa,
0000ff00040403fc04,
00fcfc0900f603fcfb,
0000ff03fefd03fffc,
02fffb0503fa020301,
01f9fcfffcfbfffb00,
ff01fcfcf9fe00feff,
020300040501020209,
fc00fcfdfefd0000ff,
fcfcff00fa01fef9fe,
ff00ff010000030100,
fe00fc01fdfa0000fd,
050302fffd0302fe02,
03fefd0800fe070300,
000501000601000206,
0200fa01fffc01fdfb,
0306fd000d03fafffe,
fff9fb01fdfe00f9ff,
02fd0000fcfc00fdfc,
05fefb0100f901ff00,
02fcfcfeff03010103,
00fe0000020300ffff,
fa0402fafa0503feff,
fb0508f9fc02fffafb,
00fbfd02ff0601feff,
f50c01ec1118eafb0e,
f90403f50004fbf903,
02fef803fc00010000,
f80501f6040af8fe05,
02fe0003fcfdfeffff,
f6010af9f80203fcfd,
fcfc0400fbffff0000,
00fd00f9fb05f6f800,
ffffff000000000201,
fbf902fbff04fdfe07,
03fe0403fd000501fc,
fef9feff0000030400,
00fe0102fbfd030200,
0201000100ff0300fe,
fc00fffffd010100ff,
0000010000fefd0403,
f4fffdf00612f6f802,
0402fd0101fa0500fc,
0708ff010503f9ff01,
0602fd0300fc000100,
0300fe0101fc010000,
00fefd02fcfd0706fc,
04000105fcf80900f8,
0401010001ff000000,
03feff03fcff0200ff,
00fffc0202fb0100fd,
fffbff00f7fcfd00fd,
050c0005fdfafffcfe,
0101fe02fc000100ff,
ff0205000103fc0201,
06fcff02f60003fd01,
010303010a04000405,
03fdfffdeafb00f603,
000003fc0301fd0600,
fdfcfffef9fcfefaff,
07f705f7e7fe01fa07,
fb00ff000000000202,
fff5f400fbf90403fc,
fb02fb0408faf9fcf6,
0bff0400eaf3fff1fa,
000305ff0000000400,
ff0303000401ff0101,
030304010001010000,
fb0201000501000203,
fd0000fcfd00fffefe,
fe0000fefcfffdfb01,
00030003ff00030100,
000100010001ffff00,
08090209fe0107fc03,
fbfe00f8f900f9fcff,
0100000201ff0300ff,
000202fd02030005ff,
00010000fcfdff01ff,
0201fe0500ff06ffff,
0205ff000e03fd0400,
fffffdfdfc00fefe01,
fefffbfbfbf9fbfefb,
03fefdff0300fe03ff,
04fff9fef6f6ffff00,
ff00ff00fcff00ff00,
00fcff01fc00010101,
000502000304fd0302,
fbf7f9fdfbfb00ff00,
01fc00000001fffc00,
faf7fefdf7ff000003,
0001010000ff0401fe,
0503ff00ff02000203,
fdfcfe00fbff030302,
fdfcfffff9fb010000,
fefbfb000203010403,
ff0300fc00fdfcfffe,
fcfd00000100010303,
fcf9fcfdfc00000200,
fd0505000403000100,
06fdfd00f8fb00fe03,
000705ff0100ff02ff,
ff0001020200ff0100,
05000000fe00000001,
00fffe0100fe000000,
010603000200000300,
0509030400fd020001,
0400fdfdf4f6fafb00,
050401030103010402,
0001fefefffe000200,
03fbfa00fbfb000203,
fbfbfefefafd00ff00,
fefcfcfffcfefefafd,
fdf9fdfafefe010302,
0002010000ff00ff00,
00fe0000fdfffffcfd,
020609000004fafbf9,
0200fefe0004fe0405,
00fc02feff01010000,
fdf7faf6f9f5f900fc,
020000fdfa00fafbfe,
faedf7f7f4fcf5f7fa,
0a080f01fc00f7faf8,
0101fd0001fcfffdff,
05fbfcfef801f9fa05,
0000fa01fc00fffe01,
fffefffefbff04ff04,
03fdff01fffe000402,
04050706000201fa00,
00f9fe00ff00040002,
fc0002fbfbfa01fffc,
00000001fcfd060806,
fffd00070203070602,
fefffffdfbfb0300ff,
fbfe01faf7f6fcfafa,
00fe01fffa05f8fe00,
f8f600fff9fefefafd,
ffff00fe0000010201,
030205fefd05f7ff05,
01fb0000fcfe00ff02,
03fa00fdfa02fbfc01,
0702f90001fbff0000,
000300030501050502,
000a030003fdfefdfa,
0200ffff00fd01fc03,
0304010603010402ff,
040503fafcfdfdfe01,
03fafdfcf2fcf7f802,
00fd0000ff0600fd00,
05faf80300ff0300fa,
0b02ff00000009fdfd,
f4fc04fefe03fe0008,
f900fffe0003fe0100,
0303080000fe000505,
0009fefb0302fe03fe,
f40003fa0509f8ff00,
0800ff01ff0003fefe,
fd000100fffaff0304,
feff0300fdfc03fc01,
fa0601fc01fefc02fd,
fb0600ff00f6000901,
fbfd00fcfcf9fe0002,
fd0300fdff00010000,
fbf6fc06fe01fdfc00,
fdf700fdf900fdfdff,
f2fbfdf5f6fcfcf602,
01fbff030006030302,
03fe0100000202ff02,
0603000102030609ff,
020106020504040106,
fc0005fd0002000002,
00f8fb00fc0000fb00,
01fcff01fffe0400ff,
ff0000fbfdfdfafdf8,
03f9f605fafb07fafa,
00fef80103000102fc,
fcfb01ff00ff000001,
00fefafe01fefc00f7,
01fb0d00ef0007fd05,
faf9fbfff9fffdfafa,
010003000503f8fdfa,
fd0100fcff00fafefa,
0003000004040001ff,
010300000301fe0000,
01fefe00fc00030002,
fc0000fe0203fe0003,
fe01ffff0401fb04ff,
ff0000030600ff02fe,
fbfdfcfafdfbfafdfe,
000500030c00fb03fb,
f8fcfdfbfbfdfffefe,
fbfbf800fffe040201,
fdfcfd00fe00040100,
0607010207fefd03fe,
050601050802000300,
fefaf602fcfb010000,
fd00fffb0001fcfd00,
fdfefd00fe00000102,
00fdfdfdfffefbfbfd,
fdfbfdfefdfb010603,
00fe01feff00010300,
0000fd0000ff020000,
fe02fc0204000001fd,
fdff00fbfffffcfcfd,
fefefcfffcfffdfd00,
010501fe0503040705,
fcfc0000fe00fefbfb,
0001000200fb050303,
00fc0000fe0200fd00,
0105fe0507fb0002fa,
00ff00000002fcfcfe,
02fefe00fcfa00fefd,
f8f5fffaf4fdfbfd00,
0002fb000604fe0507,
0000ff0100fe0100fe,
000000000001ff0201,
01fefb02ff00040301,
fbf6fcf7f4f8fbf7fa,
f7fdfe000605040a06,
fe00fc03fcfb0101fe,
fef8fbfdf8fbfbfdff,
ff02fc000700ff0600,
fefefefe00fd0001fb,
00fefd030000040602,
fdf6fef9f0fcfdfa03,
00f6f6fef7fa00fe00,
fd02030202030201ff,
050902010800fe03ff,
000103000003000103,
00000001ff000000ff,
fcf8fdfbf8fcfffbfc,
00fefe03010001ff01,
0204050404030602fe,
0202ff020201ff0200,
fffffe010904fc0500,
fdfd00fcfd00fbfbfd,
00ff00fffd01fffd01,
010502030502000604,
010000020001000001,
01fe00ffff00fffeff,
00fefcfcfefefdfafe,
fdfafefdfd04010000,
00fcfd00fbffff00ff,
0400000001fe0000fe,
fd000101ffff000700,
fd0001fcfcfdfdfcf8,
ff0101050701fd0b05,
f9fffcf4ff00fd0100,
f7f501f8f701040108,
050102fffffd050300,
01000bfbf8fc01fd00,
f5fdfcf9fc0301fff9,
08faf90400f5080af5,
fefd05fffd0200f800,
fd02fcf6fdf9f8fffd,
fff4f603f2fa07f900,
fc0606f5fe02f3f904,
01f40affebfc0af100,
fb0905fa0704f909ff,
fbffff01010006fd02,
f9f9fc01fbf7070400,
000500fb0401fd0403,
fe04ffff0400ff0000,
fffffc05fffc04fef9,
00fef502fcfb010004,
fefd0000fe00000000,
02fa0101f7fc070000,
fd0d04fc0c03f70803,
fe00faf8fdfb040001,
fa0606fdfdfc0000fd,
f702faf80600f60502,
fefbfe0000fa020d03,
fafb0300ff05ffff03,
fef601fbf5fbfffaf9,
030b00f40607f5ff00,
fafffff7ff02fe0703,
000100000100ff0000,
0000fffefd000000ff,
010101020101010000,
fd0001010301010002,
0201000102fefefefe,
0002010103ff010002,
070201050301040400,
0000000002fffe0000,
0001010101000202ff,
0000ff00000000ff00,
ff0000000000000201,
020405030601010103,
010301030301010302,
ff00ff000000000101,
fffdfe010000000200,
00fe0000ff00000000,
ff0000ff0100000101,
010000000000000100,
0100ff000101000203,
000200000000ff0100,
00fefffffefffe0000,
fe00ffffffff000000,
000200010101010402,
fcfefffeff00000000,
fd0000ff0201000001,
0100000000000000ff,
fdffff00ff01000102,
fdfeff00fffd0000ff,
ff0000000101ff0000,
ff00000001000001ff,
fffe00ff0001000000,
ff01000001ff020000,
ff00fe02fffc050701,
02070405fcf600f5f7,
0000000202fefefdfe,
00000002ffff00ff00,
f9fdfcfc0202fafbf5,
fffaf9ff0f09fe0a01,
fe050303fdfa0901fe,
fef8fbfefe01fe0908,
000103fefcfb02ff00,
04f608f6d6ef01e5ff,
06070600eef800f1fc,
fcfdfefd0603f700fd,
f3fefa032a06f412fc,
01050bfefbfa00fef9,
feff00fef4fbfffafc,
02f8ff04fafd02f9fe,
020404000105000004,
ff0202010b05010003,
01010000fffe02feff,
010100fefd0200fc00,
02fffd0400fcff0002,
00fffdfefb0000fb01,
fcfffd02000300f9fd,
fd0602fd0103fc00fe,
fb0100030602040101,
000001ff0002010100,
00fcfa00f7f9fff9fa,
02fc000002fd000306,
0100fb021608ff0d02,
fd01fe010806fd00fe,
030102fe000000fefe,
fcfe00fafc06fd0205,
00fdff00fcff050403,
0103fe00fbfc010206,
0103fe0100fc0000ff,
000000fffefe00ff00,
fd0202ff0201ff00ff,
fefeff00ffff010000,
fe000000fbfe020001,
fffc0002ff02020300,
02000000fdff000000,
00f7fb00f600010402,
000100010302030001,
fa0e0ff70a09f6fdfa,
000700020000fffeff,
00fdfb04f8f8050000,
0100ff030001010300,
ff05020202ff010100,
00000402ff04000003,
fefbfd00fbfd00fb00,
fefd0000fdfd00fdff,
010104fe0000000002,
0200fe02fffd010000,
01fe0000ff0200ff01,
fbfc0100fd00010300,
00ff00fe00fffdfefc,
00fdfefefefffeff02,
0001fffefbfe010000,
010000feff00fdfefd,
0201fe0200fe010003,
000603030302020302,
f8f8fefaf4fcfdf6fd,
000300ff0100000103,
00ff06fc0008000301,
00000000f80006fbff,
00030001fd02fefd00,
000002fef7fd00fbfd,
fefefbfdf8fd00fdfe,
01040400ff00ffffff,
fffe00fc03fdfa02ff,
f3fc02f0ed03fcf701,
ff00fff9f8fdfafcff,
0000fe03fd01000000,
000000fafbfdfe0002,
ff030500f705fdfc02,
f7f2f4fef7f90304ff,
0000fb0207f8fc00f5,
0305010002fcfefcfb,
0000fdff0100fdfd00,
fe06f9030a00fb08fe,
fbfd08f3f006fbf002,
02030102fe0300fe00,
ff000401fe0003fe01,
fefe0001fa01fefc00,
01000102fa0105ff01,
fc00fdfbfb01fbfe00,
0204ff06fffd04fefa,
04ff05fdf00004f300,
00010100fe02000204,
0004000202fe000301,
fdf700f8effd00f902,
ff0500fe0300000000,
fffcfe00fdff0000ff,
fd0200fbfc00fbfc00,
01000000fffbff00fe,
fe0200000002000105,
ff0001000201000106,
010809fffc00f8f7f9,
ff0600fbf900fffaff,
06ff01ff0004fdff03,
f8fcf80300fd090906,
01030402fffc00fcfe,
fcfdfdfffbfe00fffd,
07ff020400ff010100,
fd0101f7f1faf9f3f5,
feffff030000000100,
fc0403fbf80000ff00,
02fefe050201000303,
f7fcfa0203fe070702,
f6fafa0300fd060101,
0801fe040203020101,
040301040501000301,
fdfd02fcfc00fffe00,
0b0100040404000202,
030806040308050302,
fe0a02f2f6fef8f2f7,
ff0100fdfc0004fefc,
fe0001fcfdffffff00,
fdfdfcfdfcfb000100,
010005020000010200,
f9fdfff5f5faf9f8fa,
0104fff8fcfd00fafb,
04030300feff00fcfd,
000403fcfd000400ff,
fefefe01fd00050002,
fcf9fd00fffdfe00ff,
0200ff00fe00fdffff,
fd0102fffaff01fcff,
ff0202fefa01000005,
ff0001fefafc000000,
00fefc0000fc0001ff,
00000000fcfdffff00,
0100ff00000000feff,
ff0001fdfcfdff01ff,
fbfbfc000002040002,
01000200000100fbfd,
fefd000000ff0002fe,
ff0001fefefffdfd00,
020403010302020403,
00fffd010000010000,
00fb0000fffe010200,
fffcfdfefafdff0000,
04070400ff0400fe00,
020401010402fc00fc,
ff0202000001000002,
020603040c0300fe00,
000002ffff02000300,
000101000000020202,
020200010302060302,
000001ff0000000000,
fffefefffffffffe00,
00fe00fdfbfdfdfefd,
060502040303050602,
00fe00fd0000fffb00,
00fd00fefbfdfdfefd,
00fffefeff00fcfeff,
0101000100ff00fcfd,
0003fefdfb02040202,
000002fefffefcfbff,
0000fffffefcfdfe00,
000007fcff05fe0001,
0b00f909fff902fdfd,
00fbfafdfbf9fcfffd,
00fffc0400fe030101,
000307000b08000502,
04fefffcfffbfdfefc,
fafdfd0001fe0600fd,
0afbf90106fd000efa,
03fcff00040b00080e,
fefb00fdf7fe03fa02,
fffe03f9fbfef8fe00,
fb00f90103fafb00fd,
fffd04fd04020000ff,
fffb0703fe0902ff00,
fc010400fffb06fefd,
f7fdfafe00f90103f9,
fbf800fafc01fafd00,
020102fb0005000002,
00040704050500fd01,
00f1f5faeaf9f3ee00,
000104000305000000,
00fdfc00fa0101fe00,
04fefff80104fbfeff,
f8fefef9f701000007,
03050700fd09000603,
0100fa00fcfefafc02,
fcfafff7f8fefcfcfe,
fcf1fafcf7f9fcf5fb,
0000fe0000fe000104,
fef8fdfffeff000004,
0204ff02fffdff00f9,
090200feff00fcff00,
00f70000fbfd0309fc,
020000fd00fdfffa01,
06ff0200fffefe0200,
fcfe0001f4fa060203,
fefffe000000040901,
020103000101ffff00,
050806010102fefbfa,
fd0403fafc0201f805,
010405040108fffe03,
060b04fc0401faf6fa,
040001020000fafb03,
00feff00fbfe000302,
0302ff070700f8fcfe,
ff02fffd050000f8fd,
0101fe010aff050c00,
f7fcfcfafefffef903,
f9f900fcf8fe0f0900,
fdfcfd03fffe080c00,
fefafc05fafc060601,
010601fd040200edfa,
0004040001fd03faf8,
fffbfffffe00030205,
fd0100fe0001fafcff,
fff6f700fcfa090b00,
0000fefafafdfbfe02,
00ff01fcfe00fbf300,
fcfaf80106fdf80a08,
080707000002fe00f8,
feff00fdfe0007fd02,
010300fd0003fdf900,
fe00fcfe08fefa0a0c,
01fd0001fffbfdfffd,
0905fb08fff806fcf9,
fbff050104010504fd,
fb020100fefefefe00,
0103fe09feff02fdfa,
fafefefefdfdfcfa00,
05050106fff904fcfe,
fe00010000fd0001ff,
05fdfa05f900fdfe00,
ff04010105ff0000fe,
fe0100fe0100ff0202,
00fe00fffd0001ff02,
faff02fffe00fc0106,
00ff00fffe01fafb02,
fd0300020000fd0005,
03f7fdfcf802fbfc03,
f8fe00fe0303fe0104,
0609fe0800fc060003,
07fefa05fafd02fa00,
fff3effae8f3f4f4ff,
01020002fefc0500fc,
00fcfdfafcfbfc0500,
fb01fe0200fe00fefd,
00fcfffffd0000f903,
0a06020cfdfc07f5ff,
fa0e03060a05080801,
fa0002fe0105050500,
0906fb09fefd04fc00,
fc0400fe01fb00fefe,
fdfb00ff0102030000,
01fe00fe06ff000303,
04fefc0afcfc06fafa,
fe0005ff0200fe00ff,
010302fefefb00fbff,
fa000001fcfe010206,
000200fefffcfcfcfe,
fffeff000507060108,
030203fdfd00000000,
00020100fdfefdff00,
0a0705fbfcf7fbf8fa,
fdfdfe01fffe03fe00,
fdfffef9ff00fafc00,
00ff00000101020100,
fc00fe000000fd00ff,
fdfbfcfdfeff050500,
010606fffdfcfafbfe,
050407fdfcfbfefcf9,
000804080405080106,
00fefe030300030000,
0102fffe00ffff00fe,
fffd06040600060000,
fffeff04fffa000001,
ff00fef6f5faf5fc01,
fbfffffcf9f9fdfbfd,
ff0500000500000201,
06010200ff00fcffff,
fbfc01010402ff0003,
0502ff000206000400,
00fffffa0203020406,
fefe00fdfbfbfcfc00,
f9f7fbf4f5fafafeff,
020303050005000402,
ff020109040005ff00,
05ff0407020504fe02,
06030001fafffeff02,
0eff0002fe02050207,
01fdff00fcfffdf9fb,
fefffeff00fafdfbfd,
00000101fbfefefbff,
030003010204030206,
000606060804030001,
fcf5f8f7f1f8f8f7fc,
02020303ffff0000fd,
0201ff000100000000,
fe070104fffd00ffff,
0000fe010200020000,
fcfcfffdfdfffcff00,
f9fdfefbf700fdfe01,
fdfdff0200fd0001ff,
fcfdfe01fdfffcfefe,
fe00ffff0103010503,
0503fefdfefffbfefb,
fdfcfdfdfbfdfcfafb,
01f9fcf9ff00ffff00,
fe0500010402070102,
fcfefefffefefffcfe,
030300000000000001,
0204fc00fdfb00fdff,
03fffe00fafdfcfbff,
fffefdfcfcff00ff00,
fffe0201ff0001fdff,
03ff00fffffefdfcfd,
0403fe030005020003,
030608020200000302,
0000fefdff00ff0300,
02000404030200fe03,
ff0703030200070305,
f9fbfffdf9fd01fefb,
03fefa0500fd0301fd,
02fffe01ffff0103ff,
f6f7fffcfafdfffc02,
fe000000fcff00fffd,
0103ff0300ff020101,
03020504ff01010000,
fe00030000fdfefefd,
0400fe0200fefefb00,
fc0103fffe01000002,
000002000302feff01,
0000000000000000fd,
0103000000fffffe01,
000003fcfbfe01fdff,
f9fd0200fbfe0302fe,
f8f9fdfaf8fcfafafd,
fcfbfdfbfefffcf8fc,
0205fd05ff0007fcfc,
0100000200000305fe,
00fe01010003020002,
000000000000040400,
fcf9fffcf8fefef7fa,
fcfd0000fbfe00ff00,
0001ff0000ff02feff,
fafe00fe0003fffe03,
fffffefffefefefffe,
fcf9fbfffcfa04fefe,
00ff000200fe0302ff,
fefcfb01fcfa00fcfc,
00ff00fffffc00fefb,
f9fc00fef800fef8fb,
040401020405020303,
010200020902fc0902,
fffbfdfa00fffb0400,
fb00fefa0000010308,
0100fdfb01fff6ff0b,
00f2f807fbfc0300ff,
03fc00020000fe02fe,
fbf8fd00f4fb0afbfc,
ff0002fe0006fafa04,
07ff03000506f9fd01,
000002ffff01fdff00,
050300000003f9fb03,
06f90005feff0901fa,
fff50200fa0304ff05,
fff6fd05fbfc0803fc,
fc0100fe0703fd070a,
fff3f602fc0009fc04,
08faf90603ff000901,
fffdfffd00fcf9fffc,
0bf6f50908fd060c03,
fe00000201000305fe,
00fdfc02fe00040300,
0400f9030304000601,
fef4fc03fafa0201ff,
0a0b01fb0704f90408,
ff0001ff0000fcff04,
f902fffcfefd03fafe,
000e06f4050bf6fb06,
010100000200000b02,
fafcfe00f7fc02fdfa,
0300fdfc0100f90202,
f90800f60e07f5f700,
01f9fcfefffffeff01,
00fffefffffefffefe,
ff0202fcff000001fe,
0201000405030308ff,
fefefe0200000200fe,
fc0105fa0004030004,
fafefdf8fe00010503,
f80002f2f700faff02,
0200f903fefc0200ff,
fbfe00fb00fcfcfffe,
000101ff06000002fa,
0603010102fe0000fe,
fffbfc01f8000b0303,
030200fe00ff0200ff,
00000200ff00fd00ff,
0003ff0303000603fd,
0000fb02fffafcfdfa,
000704000404fd0503,
ff0001fc0003fcff04,
fbfdfef9fb00f5f9ff,
0505000000fc000403,
050704010606020204,
0100ff01fe0000fffc,
010201fef8fd00fbff,
ff0003000002fe0102,
fa0103000205fff9fe,
000403080405030704,
feff00fdfe00fffc01,
00fffdfdffff0100fd,
050400000503030803,
fd00ff000301050100,
faf9fafaf9fe000002,
00ffffff00fdfcff02,
fffefdfbf5fc00fefe,
fd0afe080a0101ff00,
fd0000fffbfffdfffd,
00020001000000fe00,
010000fdfdff0002ff,
02fffefafffefc0000,
020200010302020500,
00fa00f20206fb0804,
0000ff0203fc020102,
01010002fffc01fbfd,
00fb03f6f6fdf8f6fc,
fe0000ff0500fc0300,
ff0000fe0102fc0103,
01fd0000fafc00fdfd,
fcfc000001000904fe,
fc0004fd0302fb01fd,
020301fefb01fef8fe,
ff0300ff0202030201,
ff03000001ff02fffe,
fafeff00fdfefffc00,
ff0000000102030200,
fafd00fbfb00fcfe00,
0001fffbfd00f5ff01,
04010000fafefefbfc,
040203020002ffff00,
000000fe0700000300,
01fa00fffbfdfefbff,
0004000bfe02030000,
ff0100fffd02010003,
00000000fffefbfbfe,
06000000ff00fffbfe,
fdfefffa0101010100,
0301f70405f70102f9,
fe04ff0305fc0101ff,
01020003000201ff00,
fefbfefbfe04f5fc04,
fff90202fd04ffff01,
07fdf701fbfc02fd01,
0bfff70e02f30902f6,
03fdf803fe00fdff00,
00fd00fdfbfb00fcfc,
07ffef0b00f10500fb,
ffff000000ff0300ff,
f7fa08fafd06000102,
f60505f40802f60400,
00fe0000fe0300fd03,
0500fd0702ffff00ff,
fefc0102000300fc02,
01010000ff02ff0100,
fbff01fffd02fffe03,
fffe00ff0402fe0300,
02020000fc0004ffff,
030301000201040202,
fffffdffff00fdfefd,
04f8f70c00f30601f7,
00fe0500000301fc00,
fefd00fdfb04fdff00,
0402000300ff04fffe,
0001fe040101020102,
05f9fb030002ff0000,
ff0002fa0000fafd00,
02ff0203fbff00fc02,
fbfc07fdfe07fdf906,
08fafe03f10001f700,
fff901fcf7fb010704,
01fd00ff06010000fd,
02f3f5010904ff0f0d,
00f90202f2fdf7fefa,
081104fff803f6f101,
00fbfffffefefaffff,
0b1203fcfe02f5ec00,
00fc00ff00fbfd0200,
fcfafd01fefa070601,
010001feff00fdfcfd,
fcfdfafafefd000000,
ff0c08fffc02fbecf0,
090903fefd00fcf9ff,
0002020101fdffffff,
01fefffe0401fe0b03,
03070300fd00fcecf9,
f8f4fc00fe010a0805,
00f8000000fd020500,
fdff04faff04010001,
f8fc0000fffb070501,
fbfd00fffffd030200,
fefafaff0000010601,
000e05ff020604f4f8,
01fa01fefefefd0402,
fdf9fbfffbfbfe0000,
00fdfcfefc00fe0203,
fef9fd020400020700,
fd03ff00fe00060001,
0905040003ff00fcff,
fffc010204fd0205ff,
030000ff01f9fa00f7,
02050004000200fb01,
fffbfefbfd00000300,
fcfc06fc02050809ff,
00fefdfdf7fff8ff01,
00fafc02fdff02fc00,
05fef700f8f8fcfcff,
fd030402040201fefb,
0a02fd04fefafffaf9,
fdfffefe0000040701,
ff0008000208ff0b09,
0301ff06ffff00f9fd,
00fc02fcf805fcfe02,
0503fe04fbfb01fdfd,
0802fb00f9fbfaf4ff,
0504fd0000fa00fcf7,
fcff00fe0302030000,
00fefb00f6f701fdff,
fafd01fafdff000301,
00fd00fefe02fe07ff,
fcfcfcfcf7fafaf8fd,
030000fcff00fdfe02,
020104010100fefbfe,
fefdfefcfdfcfc0405,
02030303020002fefd,
fffd0300fd02000207,
010100020503040b00,
0400fe00fb00000600,
ffff0302010a090e04,
fdfd0200fe01f9ff00,
00fffe00fe00000005,
020201fe00fffffc01,
00feff0002010506fd,
020406000306020000,
faf1f70906ffff0fff,
fcf9f8fcfafcfd0402,
000003fdfe000000fd,
fc0000fd020101fdff,
fdf80002f6fd0a0a02,
010202f80300f5fcfa,
efdbeb0704ff031904,
06fcfe000004f6fc00,
000100ff0003f90001,
fdf4fc030900fb0400,
fbf1f900f7fe03fe02,
fdfdfa010701fd0600,
070d02f5f4f5f3f4fa,
01fe00fffafe01fefd,
0300010b0604000b01,
fc0602ff0303fcf8fc,
f6f8ff0003040b0805,
fc02fefafa00020104,
01fffdfcfffdfbf9fe,
08ff04000000f9fd01,
0800fa000505fa0202,
ffff0000ff00020100,
04f5f703f8fbfc0401,
f6f5f600fc02080a0a,
020500ff0002fff8fd,
fd02fefdfc01fe0503,
fdf6fa040003060202,
00000404ff0002fdfb,
00090300fdfe01f5fd,
f6fcfdfff9fd080300,
fbfdfefbf601020000,
fffc060100020400fb,
04000700ff05040004,
00fefffffffffdfe00,
0001fc00fefb010001,
0400fc03fdfd01fe00,
f8fcfdfd00fa00fffd,
f9fcfffbff02ff0001,
fbf900fcfb00fefbff,
fffb05fefb03040200,
010100000002000205,
0402ff020001ff0001,
fd0300000600fc00fb,
fafbfbfdfffbfffdf9,
0002fe0705000804ff,
ff0202000103010102,
0607040309010202fd,
fc0d04ff0901f900fc,
0000000001000001fd,
0002fffd00fe0000fe,
fd05050204040201ff,
00fefe00ff00000003,
00ff000200fe0000fd,
000000010200000301,
fff8f6fcf7f7fff8f8,
00ff00fffe00fdff00,
0001ff0102fe000000,
0100010100fffeff00,
000201000002fe0000,
fe01ff0501ff03fefe,
ff0201030700030400,
02000600fd03020100,
00fd01fffd03000600,
000000000002fdfd00;
