memory_initialization_radix=16;
memory_initialization_vector=
0cf1ef0505ee0602ef,
edf0f5d4fef2e3e9ea,
11131afa3e2c0b2427,
19f616f9e009faebf8,
f6ed09f0e20304fc01,
06fc01feff01fc01f5,
f804080c050804120d,
00ffeb040006fff1fc,
f80705ea0def160511,
142df5f9e0e704e4ef,
1b3b09110919180e15,
d80efee2cbfae7e7ff;
