memory_initialization_radix=16;
memory_initialization_vector=
03060ef8011505ea09,
08091110060e140314,
00dbe6f7d8e507d7ef,
baddf42f1c00301004,
c9f50d1e11fa0af703,
bfe10b1816f81e04fc,
b415d3dbee211d1732,
005b06e7d213fbcd05,
3961f315cdf90fc3d1,
07bf0af6050301ea02,
0cd105061b1708f600,
0adf040d2411000606;
