memory_initialization_radix=16;
memory_initialization_vector=
13f5fa3defd617feeb,
11f4fb30f2e00bfcfd,
10f00031efe106fffb,
f6fe04f7f8f708000a,
fff3fcfcfdf7170706,
f2f8f700f7f70b0804,
ebe6e7c4a1e0dab1e4,
061806ff001208fb11,
123000364b181d3714,
06351a17462ef71f0b,
edd6e3f6dce804fefb,
08eafdefd3f50dfdfb;
