memory_initialization_radix=16;
memory_initialization_vector=
18110c0b1718fc09ff,
14fdf8fcf800f4fcfc,
15f3effcf1f6fdf6ed,
f8020fe5fb20e51009,
eb0310de0122e60e08,
eb000add031de51707,
351d1e19fbffc2c8f7,
2606001cf5fddddafe,
0501fa1304f2f5f807,
f8f7ee0002fe060d00,
020312130219fd0608,
0a031bf1f80df5e3ed;
